const unsigned char model[] = {
  0x1c, 0x00, 0x00, 0x00, 0x54, 0x46, 0x4c, 0x33, 0x14, 0x00, 0x20, 0x00,
  0x1c, 0x00, 0x18, 0x00, 0x14, 0x00, 0x10, 0x00, 0x0c, 0x00, 0x00, 0x00,
  0x08, 0x00, 0x04, 0x00, 0x14, 0x00, 0x00, 0x00, 0x1c, 0x00, 0x00, 0x00,
  0x98, 0x00, 0x00, 0x00, 0xf0, 0x00, 0x00, 0x00, 0x60, 0x18, 0x00, 0x00,
  0x70, 0x18, 0x00, 0x00, 0xcc, 0x1c, 0x00, 0x00, 0x03, 0x00, 0x00, 0x00,
  0x01, 0x00, 0x00, 0x00, 0x10, 0x00, 0x00, 0x00, 0x00, 0x00, 0x0a, 0x00,
  0x10, 0x00, 0x0c, 0x00, 0x08, 0x00, 0x04, 0x00, 0x0a, 0x00, 0x00, 0x00,
  0x0c, 0x00, 0x00, 0x00, 0x1c, 0x00, 0x00, 0x00, 0x3c, 0x00, 0x00, 0x00,
  0x0f, 0x00, 0x00, 0x00, 0x73, 0x65, 0x72, 0x76, 0x69, 0x6e, 0x67, 0x5f,
  0x64, 0x65, 0x66, 0x61, 0x75, 0x6c, 0x74, 0x00, 0x01, 0x00, 0x00, 0x00,
  0x04, 0x00, 0x00, 0x00, 0x90, 0xff, 0xff, 0xff, 0x08, 0x00, 0x00, 0x00,
  0x04, 0x00, 0x00, 0x00, 0x08, 0x00, 0x00, 0x00, 0x6f, 0x75, 0x74, 0x70,
  0x75, 0x74, 0x5f, 0x30, 0x00, 0x00, 0x00, 0x00, 0x01, 0x00, 0x00, 0x00,
  0x04, 0x00, 0x00, 0x00, 0x86, 0xe7, 0xff, 0xff, 0x04, 0x00, 0x00, 0x00,
  0x0c, 0x00, 0x00, 0x00, 0x6b, 0x65, 0x72, 0x61, 0x73, 0x5f, 0x74, 0x65,
  0x6e, 0x73, 0x6f, 0x72, 0x00, 0x00, 0x00, 0x00, 0x02, 0x00, 0x00, 0x00,
  0x34, 0x00, 0x00, 0x00, 0x04, 0x00, 0x00, 0x00, 0xdc, 0xff, 0xff, 0xff,
  0x0b, 0x00, 0x00, 0x00, 0x04, 0x00, 0x00, 0x00, 0x13, 0x00, 0x00, 0x00,
  0x43, 0x4f, 0x4e, 0x56, 0x45, 0x52, 0x53, 0x49, 0x4f, 0x4e, 0x5f, 0x4d,
  0x45, 0x54, 0x41, 0x44, 0x41, 0x54, 0x41, 0x00, 0x08, 0x00, 0x0c, 0x00,
  0x08, 0x00, 0x04, 0x00, 0x08, 0x00, 0x00, 0x00, 0x0a, 0x00, 0x00, 0x00,
  0x04, 0x00, 0x00, 0x00, 0x13, 0x00, 0x00, 0x00, 0x6d, 0x69, 0x6e, 0x5f,
  0x72, 0x75, 0x6e, 0x74, 0x69, 0x6d, 0x65, 0x5f, 0x76, 0x65, 0x72, 0x73,
  0x69, 0x6f, 0x6e, 0x00, 0x0c, 0x00, 0x00, 0x00, 0x6c, 0x17, 0x00, 0x00,
  0x64, 0x17, 0x00, 0x00, 0x4c, 0x17, 0x00, 0x00, 0x2c, 0x17, 0x00, 0x00,
  0x14, 0x17, 0x00, 0x00, 0xb4, 0x00, 0x00, 0x00, 0xac, 0x00, 0x00, 0x00,
  0xa4, 0x00, 0x00, 0x00, 0x9c, 0x00, 0x00, 0x00, 0x94, 0x00, 0x00, 0x00,
  0x74, 0x00, 0x00, 0x00, 0x04, 0x00, 0x00, 0x00, 0x32, 0xe8, 0xff, 0xff,
  0x04, 0x00, 0x00, 0x00, 0x60, 0x00, 0x00, 0x00, 0x10, 0x00, 0x00, 0x00,
  0x00, 0x00, 0x00, 0x00, 0x08, 0x00, 0x0e, 0x00, 0x08, 0x00, 0x04, 0x00,
  0x08, 0x00, 0x00, 0x00, 0x10, 0x00, 0x00, 0x00, 0x24, 0x00, 0x00, 0x00,
  0x00, 0x00, 0x06, 0x00, 0x08, 0x00, 0x04, 0x00, 0x06, 0x00, 0x00, 0x00,
  0x04, 0x00, 0x00, 0x00, 0x00, 0x00, 0x00, 0x00, 0x0c, 0x00, 0x18, 0x00,
  0x14, 0x00, 0x10, 0x00, 0x0c, 0x00, 0x04, 0x00, 0x0c, 0x00, 0x00, 0x00,
  0x87, 0x57, 0x59, 0x1a, 0xc3, 0x51, 0x39, 0xfa, 0x02, 0x00, 0x00, 0x00,
  0x02, 0x00, 0x00, 0x00, 0x04, 0x00, 0x00, 0x00, 0x06, 0x00, 0x00, 0x00,
  0x32, 0x2e, 0x31, 0x38, 0x2e, 0x30, 0x00, 0x00, 0x9e, 0xe8, 0xff, 0xff,
  0x04, 0x00, 0x00, 0x00, 0x10, 0x00, 0x00, 0x00, 0x31, 0x2e, 0x35, 0x2e,
  0x30, 0x00, 0x00, 0x00, 0x00, 0x00, 0x00, 0x00, 0x00, 0x00, 0x00, 0x00,
  0x0c, 0xe5, 0xff, 0xff, 0x10, 0xe5, 0xff, 0xff, 0x14, 0xe5, 0xff, 0xff,
  0x18, 0xe5, 0xff, 0xff, 0xca, 0xe8, 0xff, 0xff, 0x04, 0x00, 0x00, 0x00,
  0x50, 0x16, 0x00, 0x00, 0xd4, 0x76, 0x47, 0x3d, 0x98, 0x88, 0xe4, 0x3c,
  0xa2, 0xbc, 0x86, 0x3d, 0x02, 0x1c, 0x25, 0xbd, 0x28, 0x96, 0x95, 0xbc,
  0x98, 0x7d, 0x73, 0xbc, 0x06, 0x72, 0x44, 0xbd, 0x00, 0x36, 0x20, 0x3c,
  0x9a, 0x0c, 0x70, 0xbd, 0x60, 0xf3, 0xd0, 0xbc, 0xd4, 0x85, 0xb3, 0xbd,
  0x84, 0x23, 0xce, 0xbd, 0x42, 0x37, 0xdf, 0x3d, 0x42, 0x54, 0xd0, 0xbd,
  0x28, 0xe7, 0xc8, 0x3c, 0xdc, 0xd9, 0x00, 0xbd, 0x60, 0x3c, 0xcc, 0x3d,
  0xfe, 0xb8, 0xab, 0x3d, 0x72, 0x27, 0xfc, 0x3d, 0x18, 0x8a, 0x7c, 0x3d,
  0x16, 0x02, 0xd5, 0x3d, 0x5c, 0x22, 0x88, 0x3d, 0x1c, 0x22, 0x63, 0x3d,
  0xfa, 0x41, 0xa1, 0xbd, 0x5c, 0xda, 0x0b, 0x3d, 0x0e, 0x97, 0xb3, 0xbd,
  0x90, 0x4a, 0xd0, 0x3c, 0x58, 0xc6, 0xf4, 0x3c, 0xde, 0x1f, 0xe9, 0x3d,
  0x70, 0x3f, 0x27, 0xbd, 0x18, 0x4c, 0xc2, 0xbd, 0x30, 0xe5, 0x03, 0xbc,
  0xc0, 0x8e, 0x85, 0x3b, 0x2f, 0x59, 0xb2, 0xbd, 0xe4, 0x91, 0xea, 0xbc,
  0x3e, 0x2a, 0x19, 0xbd, 0x6c, 0xa7, 0x33, 0x3d, 0xa0, 0x7d, 0xaf, 0x3d,
  0xe2, 0x76, 0x5b, 0xbd, 0x48, 0xa2, 0x03, 0xbc, 0x9e, 0x43, 0xdf, 0xbd,
  0x62, 0x12, 0xee, 0x3d, 0x8a, 0x65, 0x84, 0x3d, 0xb8, 0xf1, 0x97, 0xbd,
  0xf2, 0xcd, 0xc9, 0xbd, 0x9a, 0x6d, 0xc7, 0xbd, 0xd0, 0xeb, 0x88, 0x3d,
  0xa6, 0xf6, 0x0b, 0xbd, 0x50, 0x59, 0x52, 0x3c, 0xc9, 0x2b, 0xf0, 0xbd,
  0xe4, 0x36, 0xa1, 0x3d, 0xa0, 0xb3, 0xfe, 0x3b, 0x6c, 0x43, 0xf7, 0x3d,
  0x59, 0xbb, 0x03, 0x3e, 0xbc, 0xd7, 0x5c, 0x3d, 0x88, 0x71, 0x0a, 0x3d,
  0xc8, 0x51, 0xeb, 0x3d, 0x3a, 0x31, 0x9b, 0x3d, 0x62, 0xda, 0x82, 0xbd,
  0xec, 0xd5, 0xea, 0xbd, 0x08, 0xd5, 0xd8, 0x3c, 0x90, 0xc4, 0x59, 0x3c,
  0xf8, 0xdb, 0x3d, 0xbd, 0x12, 0x6b, 0xfb, 0x3d, 0x54, 0x1e, 0xa0, 0x3d,
  0xf0, 0x2c, 0xa4, 0x3d, 0x60, 0x83, 0x48, 0xbd, 0x57, 0xd1, 0xb3, 0xbd,
  0x18, 0x7d, 0x27, 0xbd, 0x5e, 0x2e, 0x6d, 0xbd, 0x18, 0xdf, 0xef, 0x3c,
  0x20, 0xff, 0xed, 0xbd, 0xcc, 0x4c, 0xc5, 0xbc, 0x69, 0x52, 0x01, 0x3e,
  0xa8, 0x58, 0x60, 0xbc, 0x92, 0x60, 0xa4, 0xbd, 0x9c, 0x31, 0x9e, 0x3d,
  0xdf, 0xad, 0xf1, 0xbd, 0x90, 0x9c, 0x19, 0x3d, 0x26, 0x91, 0x18, 0xbd,
  0xfe, 0x2a, 0xfa, 0x3d, 0x88, 0xf4, 0x2e, 0xbc, 0x2a, 0x8a, 0xa3, 0xbd,
  0xde, 0x3d, 0xdb, 0xbd, 0x1a, 0xec, 0xaa, 0x3d, 0x60, 0x78, 0xb3, 0xbc,
  0x24, 0x08, 0xe0, 0xbd, 0x50, 0x4b, 0x37, 0x3c, 0x3d, 0x49, 0xc9, 0xbd,
  0xe0, 0x0b, 0x6f, 0x3c, 0x38, 0xf0, 0x1e, 0x3d, 0x00, 0x18, 0x75, 0x3a,
  0xa0, 0x27, 0xd4, 0x3c, 0x34, 0xf3, 0x23, 0xbd, 0xe0, 0xf2, 0x91, 0x3d,
  0xc0, 0x65, 0xc3, 0x3c, 0xaa, 0x4f, 0xd0, 0x3d, 0xb6, 0xaf, 0xd0, 0xbd,
  0x20, 0xba, 0xac, 0x3c, 0x33, 0x4f, 0x87, 0xbd, 0x50, 0xf2, 0x9d, 0xbc,
  0x22, 0x2d, 0x49, 0xbd, 0x00, 0xc1, 0x76, 0x3c, 0x92, 0xd7, 0x90, 0xbd,
  0x3e, 0xba, 0x31, 0xbd, 0xbc, 0xe4, 0x03, 0xbe, 0x6c, 0xef, 0x3a, 0xbd,
  0x00, 0x60, 0x03, 0xbe, 0x57, 0xf5, 0x01, 0x3e, 0x34, 0xaf, 0xa9, 0x3d,
  0xf0, 0x03, 0xf1, 0xbd, 0xa0, 0x74, 0x1a, 0x3d, 0xf3, 0x92, 0xe2, 0xbd,
  0xf2, 0xae, 0x4f, 0xbd, 0x04, 0xdc, 0x4b, 0x3d, 0x78, 0x0a, 0xee, 0xbd,
  0xe4, 0xaa, 0xb8, 0xbd, 0x88, 0xa5, 0xa6, 0x3c, 0x3c, 0x8d, 0xa5, 0xbd,
  0xcc, 0x1e, 0x95, 0xbd, 0x28, 0x56, 0xf0, 0x3c, 0x60, 0x1e, 0x53, 0x3d,
  0x48, 0x89, 0x90, 0xbc, 0xf0, 0x3d, 0xac, 0x3d, 0x08, 0x0c, 0xbb, 0x3c,
  0x80, 0xc7, 0xc6, 0x3d, 0x42, 0x16, 0xe8, 0x3d, 0x20, 0x21, 0xd0, 0x3d,
  0xc4, 0x7e, 0xdb, 0x3d, 0x36, 0xb3, 0xfe, 0x3d, 0x1c, 0x26, 0x42, 0x3d,
  0x52, 0x6a, 0x12, 0xbd, 0x98, 0x44, 0xc4, 0xbd, 0x88, 0x34, 0x1d, 0x3d,
  0xfd, 0x3c, 0x00, 0x3e, 0x65, 0x95, 0xe9, 0xbd, 0xdc, 0x2a, 0xf1, 0x3d,
  0x00, 0xf9, 0xaa, 0x3d, 0x1e, 0x14, 0x0e, 0xbd, 0xf0, 0x85, 0x32, 0xbd,
  0x22, 0x74, 0x93, 0xbd, 0x72, 0xaf, 0xba, 0x3d, 0xc8, 0x9d, 0xd6, 0xbd,
  0x50, 0x92, 0xa2, 0x3c, 0x3e, 0xd4, 0x26, 0xbd, 0x9e, 0xdb, 0xd3, 0xbd,
  0x38, 0x8c, 0xcf, 0x3d, 0x80, 0x42, 0x20, 0x3c, 0x54, 0xa0, 0x52, 0x3d,
  0xa8, 0x42, 0x58, 0xbd, 0xf0, 0x59, 0x5f, 0xbc, 0xfc, 0x88, 0x7b, 0x3d,
  0x20, 0x69, 0x4b, 0xbd, 0x1d, 0x1d, 0x02, 0x3e, 0xaa, 0xff, 0xbd, 0xbd,
  0x44, 0x07, 0x0e, 0x3d, 0x94, 0x6c, 0x8b, 0xbd, 0x43, 0x44, 0xce, 0xbd,
  0xc0, 0xf7, 0xf1, 0x3b, 0x61, 0xdc, 0xed, 0xbd, 0x5c, 0x9a, 0x8e, 0xbd,
  0x86, 0xed, 0xe8, 0x3d, 0x34, 0xbf, 0x74, 0x3d, 0xc4, 0xa1, 0xb2, 0xbd,
  0x7e, 0xf9, 0x8c, 0xbd, 0x50, 0x1d, 0x98, 0xbd, 0x18, 0x0c, 0xd4, 0x3c,
  0x5c, 0x01, 0xc4, 0x3d, 0x2c, 0x23, 0x8b, 0x3d, 0x2a, 0xdf, 0xcf, 0xbd,
  0x9e, 0x7c, 0xf3, 0xbd, 0x34, 0xb0, 0x84, 0xbd, 0x38, 0x36, 0x73, 0x3d,
  0x11, 0x69, 0x01, 0x3e, 0xb8, 0x74, 0xc9, 0xbc, 0x5b, 0xa1, 0xcd, 0xbd,
  0x80, 0x3f, 0x91, 0x3b, 0xe2, 0x9f, 0xf5, 0x3d, 0x4c, 0xaa, 0x09, 0x3d,
  0xb4, 0x87, 0xad, 0x3d, 0x78, 0xea, 0x2d, 0x3d, 0xa6, 0x7c, 0x53, 0xbd,
  0x2e, 0xf4, 0x8a, 0xbd, 0x80, 0xf4, 0xbf, 0x3c, 0x88, 0xb0, 0x52, 0x3d,
  0xe6, 0x6d, 0xcc, 0x3d, 0x34, 0x8b, 0x14, 0x3d, 0x7c, 0x22, 0x80, 0x3d,
  0xd7, 0x07, 0xc8, 0xbd, 0x26, 0x92, 0xae, 0xbd, 0x72, 0x84, 0x40, 0xbd,
  0x92, 0xec, 0xf0, 0x3d, 0x68, 0x20, 0x7c, 0x3d, 0xda, 0xa9, 0x8c, 0x3d,
  0x00, 0x71, 0xc9, 0x3b, 0x92, 0x04, 0xc1, 0xbd, 0x80, 0x6f, 0x72, 0xbc,
  0x50, 0x28, 0x13, 0x3d, 0x53, 0xa6, 0xdb, 0xbd, 0x80, 0xfe, 0x39, 0x3c,
  0xb6, 0x14, 0x6d, 0xbd, 0xc8, 0x14, 0x64, 0x3d, 0xf0, 0x0b, 0x84, 0x3d,
  0xd0, 0x2c, 0x18, 0x3c, 0x4e, 0x8a, 0x48, 0xbd, 0xc4, 0xe3, 0x93, 0x3d,
  0x52, 0xcb, 0xf2, 0x3d, 0xa5, 0x56, 0x01, 0x3e, 0x28, 0x13, 0x9c, 0x3d,
  0x1e, 0x7e, 0xd7, 0x3d, 0x20, 0xb6, 0xa8, 0x3c, 0x4c, 0xe7, 0xad, 0xbd,
  0x90, 0x01, 0x49, 0x3d, 0xb4, 0x95, 0x56, 0xbd, 0x50, 0x49, 0x2e, 0x3c,
  0x3a, 0x1b, 0x82, 0x3d, 0xa8, 0xd2, 0x84, 0xbd, 0x70, 0xdb, 0xdf, 0x3c,
  0x1e, 0xb5, 0x8c, 0xbd, 0xd8, 0x5f, 0xc9, 0x3d, 0x6e, 0xc5, 0xf9, 0x3d,
  0xce, 0x8c, 0x9b, 0xbd, 0x06, 0x0f, 0x81, 0xbd, 0x00, 0xc3, 0xca, 0x3b,
  0xd2, 0x3c, 0xfb, 0x3d, 0xa2, 0xdb, 0xf4, 0x3d, 0xae, 0xb2, 0xf7, 0xbd,
  0xe0, 0xb5, 0xae, 0x3b, 0x4b, 0x77, 0xb8, 0xbd, 0x60, 0x30, 0xe2, 0xbd,
  0x48, 0x94, 0x9b, 0x3d, 0x3a, 0xbc, 0x3f, 0xbd, 0x91, 0x0c, 0xf3, 0xbd,
  0xc4, 0xd4, 0x1f, 0x3d, 0xde, 0x93, 0x56, 0xbd, 0x6c, 0x7e, 0xa1, 0x3d,
  0xfb, 0x9b, 0xf0, 0xbd, 0x9a, 0x03, 0xb3, 0xbd, 0xc0, 0xab, 0xf0, 0xbc,
  0x12, 0x91, 0xf5, 0x3d, 0x04, 0x33, 0x8f, 0xbd, 0xdd, 0x7d, 0x96, 0xbd,
  0x68, 0x4f, 0xc8, 0x3d, 0x70, 0x41, 0xbf, 0xbb, 0xd4, 0x24, 0xe0, 0xbd,
  0x80, 0xe7, 0x8e, 0x3d, 0xf2, 0xfc, 0x81, 0xbd, 0x20, 0x52, 0xdd, 0x3c,
  0xc4, 0x27, 0x7f, 0xbd, 0x1c, 0xb1, 0xe4, 0x3d, 0x60, 0xe6, 0x39, 0x3c,
  0xd0, 0x9b, 0x6a, 0x3c, 0x5c, 0x01, 0x0f, 0x3d, 0x2f, 0x6f, 0xe9, 0xbd,
  0x60, 0xd2, 0xc1, 0x3d, 0x1c, 0x2a, 0x18, 0x3d, 0x2e, 0x06, 0x8e, 0xbd,
  0x38, 0xbf, 0x81, 0x3c, 0xb4, 0x37, 0x7c, 0x3d, 0xa4, 0xb7, 0x46, 0x3d,
  0x60, 0xfd, 0x01, 0x3d, 0x46, 0x82, 0x14, 0xbd, 0xea, 0x7f, 0xcc, 0x3d,
  0xd0, 0x65, 0x7f, 0x3d, 0x90, 0xd3, 0xe4, 0xbd, 0xae, 0xb6, 0x99, 0x3d,
  0xfa, 0xf4, 0xac, 0xbd, 0x00, 0xa6, 0x94, 0x39, 0x54, 0xc0, 0xe2, 0x3d,
  0x60, 0xc7, 0xd2, 0xbd, 0x00, 0xa5, 0x02, 0xba, 0x46, 0xa1, 0xc1, 0x3d,
  0x18, 0x56, 0x86, 0xbd, 0x08, 0xb9, 0x67, 0xbd, 0xf6, 0xe4, 0xd3, 0x3d,
  0xab, 0xeb, 0x02, 0xbe, 0x0e, 0x55, 0x4e, 0xbd, 0x62, 0x3d, 0x52, 0xbd,
  0x00, 0xf2, 0x73, 0xbc, 0x94, 0x3c, 0xdf, 0xbd, 0xb0, 0x44, 0x2f, 0xbd,
  0xce, 0x39, 0x00, 0xbd, 0x64, 0xba, 0xb6, 0xbd, 0x76, 0xae, 0x5f, 0xbd,
  0x34, 0xf8, 0x79, 0x3d, 0xc0, 0x86, 0x56, 0x3d, 0x49, 0x06, 0xe7, 0xbd,
  0xd4, 0x54, 0xad, 0xbc, 0x59, 0x97, 0xac, 0xbd, 0x6e, 0x06, 0x6c, 0xbd,
  0xf2, 0x5d, 0xb0, 0xbd, 0x72, 0xf5, 0xc5, 0x3d, 0xf2, 0x4e, 0xb6, 0x3d,
  0xf8, 0x0b, 0x38, 0x3d, 0x18, 0xa7, 0xac, 0x3c, 0xde, 0x1f, 0xd9, 0x3d,
  0x27, 0x1e, 0xdb, 0xbd, 0xfe, 0x61, 0x84, 0x3d, 0x0a, 0x97, 0x0f, 0xbd,
  0x90, 0x60, 0x77, 0x3d, 0x50, 0xd6, 0xa5, 0xbd, 0x60, 0xca, 0x24, 0x3d,
  0x94, 0x4f, 0x9a, 0x3d, 0xf0, 0xb3, 0xca, 0xbd, 0xac, 0x17, 0x95, 0x3d,
  0x68, 0x44, 0x4a, 0xbc, 0x08, 0x48, 0xd7, 0x3c, 0x72, 0xae, 0xba, 0xbd,
  0x34, 0x90, 0x61, 0xbd, 0x88, 0x55, 0x84, 0x3c, 0x7c, 0x1b, 0x55, 0x3d,
  0x0e, 0xd0, 0xf5, 0x3d, 0x30, 0x4f, 0x7e, 0xbc, 0x04, 0x43, 0xbc, 0xbd,
  0xce, 0x69, 0xfc, 0x3d, 0x3f, 0x17, 0x9f, 0xbd, 0xdd, 0xfe, 0x89, 0xbd,
  0x2a, 0x1d, 0x7f, 0xbd, 0x8c, 0xed, 0x1f, 0xbd, 0x40, 0xb2, 0x99, 0x3b,
  0xf0, 0x42, 0x8c, 0xbb, 0x00, 0x17, 0xc1, 0x3b, 0xa0, 0xbe, 0x10, 0x3d,
  0x20, 0x53, 0x79, 0xbd, 0x88, 0xcc, 0xda, 0xbd, 0x3a, 0x98, 0xaf, 0x3d,
  0xd2, 0x32, 0xf1, 0x3d, 0x32, 0xc0, 0xac, 0x3d, 0x14, 0x4b, 0x40, 0x3d,
  0xc2, 0x9d, 0x8e, 0xbd, 0xb4, 0x9f, 0x3e, 0xbd, 0x16, 0xde, 0x8d, 0xbd,
  0x02, 0xca, 0x53, 0xbd, 0x72, 0x98, 0xc9, 0x3d, 0xa0, 0x63, 0xfc, 0x3b,
  0x7f, 0xbc, 0xd2, 0xbd, 0x40, 0x33, 0xad, 0xbc, 0x66, 0x71, 0x59, 0xbd,
  0x1c, 0x15, 0xc9, 0x3d, 0xf1, 0x42, 0xf8, 0xbd, 0x4f, 0xdf, 0xd7, 0xbd,
  0x5c, 0xe8, 0x4a, 0x3d, 0xb2, 0xd0, 0xa6, 0x3d, 0xa0, 0x25, 0xbd, 0xbd,
  0x14, 0xf0, 0x87, 0x3d, 0x74, 0xbe, 0xf0, 0x3d, 0x64, 0x0f, 0x39, 0x3d,
  0x72, 0xd7, 0xff, 0x3d, 0x48, 0xa8, 0x50, 0x3d, 0x80, 0xcb, 0x66, 0x3c,
  0x2c, 0x6d, 0x49, 0xbd, 0x5e, 0x41, 0x36, 0xbd, 0xf8, 0x2a, 0x93, 0x3d,
  0x69, 0x7e, 0x02, 0x3e, 0x40, 0x99, 0xe2, 0xbd, 0xf8, 0xfe, 0xf2, 0x3d,
  0x4c, 0x6f, 0x97, 0xbc, 0x7c, 0x66, 0x67, 0x3d, 0xe2, 0x15, 0xa0, 0x3d,
  0x28, 0x48, 0x54, 0xbd, 0xe6, 0x0e, 0x58, 0xbd, 0x94, 0xb1, 0x76, 0xbd,
  0xed, 0x97, 0xd5, 0xbd, 0x98, 0x29, 0x11, 0xbc, 0xe6, 0xaa, 0x90, 0xbd,
  0xb6, 0x5b, 0x99, 0xbd, 0xe5, 0x95, 0x03, 0x3e, 0x24, 0x84, 0xad, 0xbc,
  0x79, 0x9a, 0xb8, 0xbd, 0x44, 0x37, 0x6f, 0x3d, 0x70, 0x80, 0x4e, 0x3d,
  0x12, 0x8f, 0x88, 0xbd, 0x72, 0x13, 0x39, 0xbd, 0x68, 0x97, 0x43, 0xbd,
  0x88, 0x0b, 0xde, 0x3d, 0xf2, 0xf8, 0x15, 0xbd, 0xdc, 0x73, 0x86, 0x3d,
  0xd8, 0x5f, 0x8e, 0x3d, 0xba, 0x41, 0x38, 0xbd, 0xba, 0x9e, 0xfe, 0xbd,
  0xca, 0xd0, 0x68, 0xbd, 0x22, 0x5e, 0xe1, 0x3d, 0x50, 0x73, 0x86, 0x3c,
  0xcd, 0xc2, 0xb6, 0xbd, 0xb0, 0x1d, 0x41, 0x3c, 0x1e, 0x45, 0xdf, 0x3d,
  0xfe, 0xd9, 0x03, 0xbe, 0x58, 0xba, 0x3b, 0xbc, 0xa0, 0x95, 0xfb, 0x3b,
  0x6e, 0x2b, 0xa9, 0xbd, 0x40, 0xaf, 0xb2, 0xbc, 0x9e, 0x9b, 0x72, 0xbd,
  0xfa, 0xb6, 0x9b, 0xbd, 0x00, 0xf6, 0xa6, 0x3a, 0x0a, 0x05, 0x30, 0xbd,
  0x42, 0xa8, 0xfc, 0xbd, 0x3e, 0xfc, 0xb4, 0xbd, 0x4c, 0xed, 0x4b, 0xbd,
  0x88, 0xc4, 0xf1, 0x3d, 0x2c, 0xbd, 0xa7, 0xbc, 0x38, 0x23, 0x14, 0x3d,
  0xe4, 0xbf, 0xd6, 0xbc, 0xc4, 0x93, 0x1a, 0x3d, 0x10, 0x5b, 0x7b, 0xbc,
  0x8c, 0xa6, 0x18, 0xbd, 0x5c, 0x6f, 0x62, 0x3d, 0x7e, 0xb2, 0xcb, 0x3d,
  0x00, 0x87, 0x69, 0x3b, 0x4c, 0x82, 0x6e, 0xbd, 0xa4, 0x94, 0xf6, 0xbd,
  0x90, 0x8e, 0x59, 0xbc, 0xa6, 0xa1, 0xa4, 0x3d, 0xb8, 0x60, 0x68, 0x3d,
  0x44, 0xc0, 0xce, 0xbd, 0x20, 0x0c, 0x65, 0x3c, 0xa0, 0x62, 0x64, 0x3c,
  0x78, 0xc4, 0x3d, 0xbd, 0x9c, 0x12, 0xad, 0x3d, 0xf3, 0x8a, 0xe4, 0xbd,
  0xfd, 0x28, 0x9f, 0xbd, 0x84, 0x33, 0xea, 0xbd, 0x40, 0xca, 0x53, 0xbb,
  0xf0, 0x18, 0xf1, 0xbd, 0x24, 0x5e, 0xa9, 0xbd, 0xcc, 0xeb, 0x25, 0xbd,
  0xba, 0x73, 0xf9, 0xbd, 0x8c, 0x41, 0x64, 0xbd, 0x8b, 0xf7, 0x02, 0xbe,
  0x60, 0x3e, 0x95, 0xbb, 0x78, 0xfb, 0x93, 0x3d, 0x3f, 0xce, 0xdc, 0xbd,
  0x64, 0xb0, 0x5c, 0x3d, 0xd2, 0x43, 0x28, 0xbd, 0x18, 0x59, 0xa4, 0x3c,
  0x68, 0x56, 0x36, 0x3d, 0x38, 0xba, 0x8e, 0xbd, 0xdc, 0xbb, 0xdd, 0x3d,
  0xb0, 0xb4, 0x2d, 0x3d, 0x24, 0x2d, 0xe3, 0x3d, 0x80, 0x32, 0x36, 0x3b,
  0x24, 0x07, 0xe4, 0xbc, 0xe0, 0xbf, 0xad, 0xbb, 0x56, 0x24, 0x8c, 0xbd,
  0x68, 0xa5, 0x88, 0xbd, 0x34, 0x42, 0x8c, 0x3d, 0x09, 0x70, 0xcf, 0xbd,
  0x58, 0x9a, 0x92, 0x3d, 0x86, 0x26, 0xbc, 0x3d, 0xd1, 0xfa, 0xf0, 0xbd,
  0xf8, 0x69, 0xa4, 0xbd, 0x5d, 0xf1, 0x02, 0x3e, 0x48, 0xc8, 0x2d, 0x3d,
  0xcc, 0xc4, 0xd3, 0x3d, 0xa0, 0x5c, 0xc9, 0xbb, 0x44, 0x72, 0x47, 0x3d,
  0x1c, 0x2f, 0xe8, 0x3d, 0xfb, 0xe1, 0x84, 0xbd, 0x61, 0xe5, 0x94, 0xbd,
  0x3c, 0x8f, 0x8a, 0x3d, 0x36, 0x11, 0x85, 0x3d, 0x70, 0x8d, 0x1d, 0xbc,
  0x14, 0x14, 0x46, 0xbd, 0xe8, 0xee, 0xa5, 0xbd, 0x5c, 0xa8, 0xcb, 0x3d,
  0xb0, 0xca, 0xd6, 0xbb, 0x9a, 0x41, 0xb4, 0x3d, 0xe8, 0x4a, 0x86, 0xbc,
  0x5a, 0xec, 0xf2, 0x3d, 0xa4, 0x56, 0xbf, 0xbc, 0xa8, 0x8a, 0x0c, 0xbd,
  0x40, 0xd8, 0x2a, 0xbd, 0x6e, 0xc6, 0x96, 0x3d, 0x2c, 0x8e, 0x48, 0xbd,
  0x6c, 0xb7, 0xdb, 0xbd, 0xf3, 0x0f, 0xd1, 0xbd, 0x86, 0xfe, 0xbe, 0xbd,
  0xbc, 0xaf, 0xd7, 0x3d, 0x0c, 0xc7, 0xbc, 0xbd, 0xee, 0x03, 0xeb, 0x3d,
  0x70, 0x4e, 0x26, 0xbc, 0x3c, 0x05, 0x7b, 0xbd, 0x22, 0x46, 0x4e, 0xbd,
  0x70, 0x9e, 0x27, 0x3c, 0x28, 0x58, 0x47, 0xbd, 0x7c, 0x8e, 0xc0, 0x3d,
  0xdd, 0xf8, 0x8c, 0xbd, 0xdc, 0xef, 0xcb, 0x3d, 0x4c, 0x80, 0xd4, 0x3d,
  0xac, 0x40, 0x91, 0x3d, 0x40, 0x8b, 0xae, 0xbd, 0x2a, 0x75, 0x8a, 0xbd,
  0x00, 0xbb, 0x8d, 0x3c, 0x78, 0x34, 0xb9, 0xbd, 0x58, 0x66, 0x11, 0x3d,
  0x7e, 0xb2, 0xd3, 0x3d, 0x50, 0xe3, 0x70, 0xbc, 0x31, 0x69, 0x97, 0xbd,
  0x8c, 0x54, 0x51, 0xbd, 0xf1, 0x60, 0x02, 0xbe, 0xda, 0x41, 0x8e, 0x3d,
  0x17, 0x29, 0x03, 0xbe, 0x88, 0x84, 0x3e, 0xbd, 0xf0, 0xc6, 0x49, 0xbd,
  0x18, 0x1f, 0x0a, 0xbd, 0x78, 0xde, 0x42, 0xbd, 0x08, 0xa7, 0xb6, 0xbd,
  0x50, 0x92, 0x2c, 0x3d, 0x28, 0xd0, 0xea, 0x3d, 0xc1, 0xab, 0xa5, 0xbd,
  0x74, 0xe5, 0xb8, 0x3d, 0x64, 0xc1, 0x82, 0x3d, 0x34, 0x9c, 0x75, 0x3d,
  0x28, 0x5c, 0x71, 0x3d, 0x64, 0x33, 0xda, 0xbc, 0x10, 0x17, 0x33, 0x3d,
  0x08, 0x37, 0x7d, 0xbc, 0xb0, 0x06, 0x28, 0x3c, 0x54, 0x65, 0xd2, 0x3d,
  0x80, 0x38, 0x8d, 0x3a, 0x42, 0x11, 0x9c, 0x3d, 0x2e, 0x3a, 0xf5, 0xbd,
  0x00, 0x57, 0x20, 0x3c, 0x1c, 0x43, 0xf2, 0x3d, 0xbc, 0xf6, 0x97, 0x3d,
  0xa0, 0xe9, 0xfa, 0x3b, 0x80, 0x14, 0x65, 0xbb, 0x7f, 0x25, 0xf3, 0xbd,
  0x00, 0x89, 0xd7, 0x3c, 0x42, 0x5d, 0xf7, 0x3d, 0x3a, 0x5c, 0xa5, 0xbd,
  0xf0, 0xbd, 0xa2, 0xbb, 0x66, 0xd4, 0x00, 0xbe, 0x16, 0xef, 0x8e, 0x3d,
  0xa8, 0xa3, 0xf6, 0xbc, 0x18, 0xb5, 0x8f, 0x3c, 0xc8, 0xf4, 0x82, 0xbd,
  0x72, 0xe0, 0x97, 0x3d, 0x15, 0xf5, 0xdc, 0xbd, 0xe2, 0xff, 0xa4, 0x3d,
  0x66, 0x7b, 0x11, 0xbd, 0x40, 0x82, 0xb2, 0x3b, 0x2e, 0x33, 0xf7, 0xbd,
  0x0a, 0x53, 0x53, 0xbd, 0xa6, 0x33, 0x02, 0xbe, 0x00, 0x70, 0x81, 0xb8,
  0x50, 0x33, 0x3f, 0x3d, 0x04, 0x06, 0xb1, 0xbc, 0x22, 0xd1, 0xed, 0xbd,
  0xe8, 0x4e, 0x2f, 0x3d, 0x32, 0xec, 0x03, 0xbe, 0x5a, 0x8a, 0x3b, 0xbd,
  0xe0, 0x06, 0x85, 0xbb, 0x6a, 0x6e, 0xe5, 0x3d, 0x30, 0x72, 0x2a, 0xbc,
  0x68, 0xbf, 0xd5, 0xbd, 0x34, 0xd3, 0xac, 0xbc, 0xc6, 0x42, 0x96, 0x3d,
  0x96, 0x14, 0xd9, 0xbd, 0x80, 0xd9, 0xa4, 0x3a, 0x16, 0xf0, 0xaf, 0x3d,
  0xfe, 0x85, 0xea, 0xbd, 0xac, 0x15, 0x19, 0xbd, 0xfa, 0x30, 0x64, 0xbd,
  0x40, 0x9a, 0x66, 0xbc, 0xe8, 0x75, 0xb4, 0x3c, 0xb6, 0x4b, 0xf4, 0x3d,
  0x7f, 0x45, 0x03, 0x3e, 0x3d, 0x8c, 0xdc, 0xbd, 0x31, 0x37, 0xd6, 0xbd,
  0xd4, 0x75, 0xde, 0xbd, 0x71, 0x58, 0xaa, 0xbd, 0xbd, 0xc9, 0xf6, 0xbd,
  0xce, 0x96, 0xd7, 0xbd, 0xdc, 0x95, 0x33, 0x3d, 0x26, 0x73, 0xc8, 0xbd,
  0xa0, 0x12, 0xc2, 0x3c, 0x9e, 0xad, 0x4c, 0xbd, 0xbc, 0x56, 0xd0, 0x3d,
  0xde, 0xc5, 0xff, 0x3d, 0x2c, 0x0d, 0x9c, 0xbc, 0x58, 0xaa, 0xf0, 0x3c,
  0x16, 0xac, 0x8f, 0x3d, 0xfa, 0x52, 0x88, 0x3d, 0xf0, 0x8b, 0x13, 0xbd,
  0x08, 0xea, 0x70, 0xbc, 0xb7, 0xfd, 0xeb, 0xbd, 0x3c, 0x9a, 0x48, 0x3d,
  0x7e, 0x91, 0x06, 0xbd, 0x25, 0xb8, 0x01, 0xbe, 0x24, 0x7f, 0xac, 0xbd,
  0x58, 0x4a, 0x89, 0x3d, 0x77, 0xf3, 0xd6, 0xbd, 0x40, 0x16, 0x48, 0x3b,
  0x36, 0x79, 0x8e, 0x3d, 0x26, 0x58, 0x83, 0x3d, 0xfa, 0x4a, 0x71, 0xbd,
  0x40, 0x30, 0xde, 0xbc, 0x1d, 0x89, 0xd0, 0xbd, 0xf8, 0x92, 0x9d, 0x3d,
  0x8b, 0x70, 0xcd, 0xbd, 0xe0, 0xb0, 0x24, 0x3c, 0xd2, 0xdb, 0xa7, 0x3d,
  0xf8, 0xa1, 0x49, 0xbd, 0xc0, 0xbd, 0xec, 0x3b, 0x60, 0x3d, 0x41, 0xbd,
  0x56, 0x34, 0xde, 0x3d, 0x60, 0x57, 0xb9, 0xbd, 0xec, 0x92, 0xfc, 0xbc,
  0x44, 0x3e, 0x3e, 0xbd, 0xd0, 0x54, 0x84, 0xbd, 0xe8, 0x4b, 0x60, 0xbd,
  0x88, 0x8d, 0x70, 0x3d, 0x68, 0xa1, 0xeb, 0x3c, 0xf0, 0x83, 0x76, 0x3d,
  0x12, 0xee, 0xae, 0xbd, 0x0e, 0xfd, 0xda, 0x3d, 0xac, 0x64, 0x1a, 0xbd,
  0xec, 0x42, 0x4a, 0xbd, 0x76, 0x08, 0xae, 0xbd, 0x28, 0x43, 0x24, 0xbc,
  0xc4, 0x80, 0x7b, 0x3d, 0x42, 0xbe, 0xe4, 0xbd, 0x98, 0x90, 0x1e, 0x3d,
  0x80, 0xb0, 0x9a, 0xbb, 0xe0, 0x32, 0x84, 0xbd, 0xdb, 0x5e, 0xfc, 0xbd,
  0x0c, 0x7f, 0x5d, 0x3d, 0x44, 0x7a, 0x5b, 0x3d, 0x00, 0xe8, 0x22, 0xba,
  0x14, 0x85, 0xf0, 0x3d, 0xf6, 0x9e, 0xcf, 0xbd, 0xec, 0xa4, 0xaa, 0xbd,
  0x98, 0x06, 0xb5, 0x3c, 0x00, 0x3c, 0x63, 0xbd, 0x58, 0x39, 0xc7, 0xbc,
  0xe8, 0xb0, 0x95, 0x3c, 0x14, 0x0a, 0x96, 0x3d, 0xca, 0xea, 0x4d, 0xbd,
  0x30, 0xbf, 0x77, 0x3c, 0x00, 0x8e, 0xb4, 0xbd, 0xa4, 0xd5, 0xc1, 0xbc,
  0xb0, 0xad, 0xc9, 0x3c, 0x38, 0xe8, 0xe0, 0xbc, 0xb2, 0x8e, 0x17, 0xbd,
  0xc0, 0x46, 0x10, 0x3b, 0x9a, 0xd6, 0xc5, 0x3d, 0x3a, 0x12, 0x18, 0xbd,
  0x44, 0x65, 0x80, 0x3d, 0xb0, 0xfa, 0x34, 0xbc, 0x6c, 0x58, 0x73, 0xbd,
  0xb0, 0x3f, 0x91, 0xbd, 0xa8, 0x89, 0x27, 0xbc, 0x00, 0xe9, 0x92, 0x3b,
  0x78, 0xa2, 0xe3, 0x3d, 0xc0, 0xdb, 0xfb, 0x3b, 0x38, 0x52, 0xd7, 0x3c,
  0x5c, 0x6f, 0x36, 0xbd, 0x96, 0x71, 0xaf, 0xbd, 0xe8, 0xe6, 0xfa, 0xbc,
  0xc8, 0x70, 0xed, 0x3d, 0x5a, 0x1b, 0xf0, 0xbd, 0x98, 0x48, 0xb1, 0x3c,
  0xe3, 0xff, 0xe6, 0xbd, 0xc4, 0xac, 0x28, 0xbd, 0x0a, 0xeb, 0xd6, 0x3d,
  0x00, 0x90, 0x64, 0xbc, 0x70, 0x84, 0xf7, 0xbc, 0x84, 0x61, 0x09, 0xbd,
  0xe0, 0x99, 0xa8, 0x3d, 0xe0, 0xdd, 0xcf, 0x3d, 0x28, 0xa5, 0x61, 0xbd,
  0x40, 0x88, 0xde, 0xbd, 0x38, 0x12, 0x2f, 0x3d, 0xc8, 0xcf, 0x0a, 0x3d,
  0x50, 0xa8, 0xd5, 0xbb, 0x00, 0x45, 0xf3, 0xba, 0xb0, 0xa1, 0xb5, 0x3c,
  0x56, 0x52, 0xa6, 0xbd, 0xac, 0x26, 0x55, 0x3d, 0xa4, 0xbe, 0x95, 0xbd,
  0xa0, 0x20, 0x92, 0xbd, 0x10, 0xf2, 0xa1, 0x3c, 0xf4, 0x25, 0x6d, 0x3d,
  0x64, 0xbb, 0xc7, 0xbd, 0x30, 0x33, 0x49, 0x3d, 0x24, 0x82, 0x12, 0x3d,
  0x60, 0x78, 0x0b, 0x3d, 0x7c, 0xad, 0x56, 0x3d, 0x00, 0x98, 0x5e, 0x3d,
  0x60, 0xd9, 0x4c, 0x3d, 0x66, 0x09, 0x91, 0xbd, 0xa2, 0x19, 0x97, 0xbd,
  0x84, 0x0c, 0x9b, 0x3d, 0x78, 0x06, 0x93, 0x3d, 0x00, 0x12, 0xf3, 0x3c,
  0x2e, 0x01, 0xfd, 0x3d, 0xb8, 0xdc, 0x8e, 0x3d, 0x5c, 0x18, 0x00, 0xbe,
  0x9c, 0x23, 0xc9, 0xbd, 0xac, 0x65, 0xe4, 0xbd, 0xd4, 0xe9, 0x9e, 0xbc,
  0x5a, 0x71, 0xd7, 0x3d, 0x50, 0x8a, 0x39, 0x3d, 0x88, 0x5a, 0x23, 0x3d,
  0xb6, 0x0b, 0x07, 0xbd, 0xa9, 0x66, 0x02, 0x3e, 0x0c, 0xa2, 0x93, 0xbd,
  0x20, 0xfa, 0x65, 0xbc, 0x6a, 0x15, 0xb9, 0x3d, 0x13, 0x91, 0xf1, 0xbd,
  0xb6, 0x06, 0xf2, 0x3d, 0x34, 0xee, 0xb8, 0x3d, 0x32, 0x46, 0x67, 0xbd,
  0xd6, 0x94, 0xff, 0xbd, 0xce, 0x5e, 0x94, 0xbd, 0x00, 0x8e, 0x76, 0xbd,
  0x7e, 0xe7, 0xb9, 0x3d, 0x3e, 0xb9, 0xef, 0x3d, 0x13, 0x9f, 0x81, 0xbd,
  0x16, 0xff, 0x02, 0xbe, 0x50, 0x4b, 0x29, 0x3c, 0xe0, 0x2a, 0x4f, 0x3d,
  0x5a, 0xbd, 0x2e, 0xbd, 0x18, 0x4c, 0x02, 0x3d, 0x12, 0x66, 0xf7, 0x3d,
  0xae, 0xc5, 0x03, 0xbe, 0xed, 0xee, 0x81, 0xbd, 0x90, 0x2c, 0x89, 0x3d,
  0xf6, 0x53, 0xe4, 0x3d, 0xf2, 0x08, 0x21, 0xbd, 0x28, 0xe1, 0xd4, 0xbc,
  0x60, 0x9e, 0x1d, 0x3d, 0xad, 0x8f, 0xb8, 0xbd, 0x2c, 0xd2, 0x93, 0xbc,
  0xb0, 0xb9, 0xd9, 0xbd, 0xa4, 0x36, 0x9c, 0x3d, 0x0e, 0x5d, 0x58, 0xbd,
  0x24, 0xa0, 0xf5, 0x3d, 0xd0, 0x22, 0x28, 0x3d, 0x86, 0x53, 0xe3, 0xbd,
  0x88, 0xc7, 0x1d, 0x3d, 0xaf, 0x2f, 0xad, 0xbd, 0x44, 0x42, 0x25, 0x3d,
  0x64, 0x5f, 0xb3, 0xbd, 0x98, 0x9e, 0xf5, 0xbd, 0x9c, 0xa4, 0x8b, 0x3d,
  0xda, 0xaa, 0x80, 0x3d, 0xb8, 0x8d, 0x58, 0x3d, 0x08, 0x18, 0xbd, 0x3c,
  0x80, 0x86, 0xbf, 0x3b, 0x9b, 0x47, 0x03, 0x3e, 0x1e, 0x87, 0x9b, 0x3d,
  0x49, 0x8c, 0xe0, 0xbd, 0xea, 0x1d, 0xe0, 0xbd, 0xa8, 0x88, 0x94, 0xbd,
  0x3c, 0xc6, 0x1b, 0x3d, 0xcc, 0xee, 0xd8, 0x3d, 0xa8, 0x71, 0x8f, 0x3c,
  0x10, 0xc9, 0xe6, 0x3d, 0x7f, 0x95, 0xda, 0xbd, 0xf0, 0xaa, 0x12, 0x3c,
  0xd8, 0x23, 0x2b, 0xbc, 0xab, 0x00, 0xed, 0xbd, 0xc8, 0x7e, 0x12, 0xbd,
  0xf8, 0x2f, 0x28, 0x3d, 0x02, 0xd0, 0xc9, 0xbd, 0x38, 0x52, 0x60, 0xbc,
  0xc2, 0x5f, 0x58, 0xbd, 0xc4, 0xc2, 0xd2, 0x3d, 0xd8, 0xc3, 0x0f, 0xbd,
  0x78, 0x7f, 0xa7, 0x3c, 0x3c, 0xb9, 0xaf, 0xbd, 0xa0, 0x7d, 0x91, 0xbb,
  0x25, 0x94, 0xa5, 0xbd, 0x70, 0x68, 0x04, 0x3c, 0xf6, 0x5b, 0xe9, 0xbd,
  0xab, 0x42, 0x00, 0xbe, 0x3e, 0x19, 0xbb, 0x3d, 0xc2, 0x93, 0x63, 0xbd,
  0xa6, 0xd7, 0x14, 0xbd, 0x30, 0x83, 0xe6, 0xbd, 0x3a, 0xc4, 0xe9, 0x3d,
  0x00, 0xbe, 0x68, 0xbd, 0x7c, 0xc6, 0x88, 0xbc, 0xf0, 0xa1, 0x2f, 0xbc,
  0x58, 0x57, 0xc2, 0xbd, 0x33, 0xd4, 0x02, 0x3e, 0x57, 0x61, 0x02, 0x3e,
  0xbf, 0x56, 0x03, 0x3e, 0xf9, 0x01, 0xd8, 0xbd, 0x9e, 0x58, 0x39, 0xbd,
  0x68, 0x06, 0x32, 0x3d, 0x2a, 0xcc, 0xfe, 0x3d, 0x9a, 0x65, 0x7b, 0xbd,
  0xd0, 0x81, 0x8b, 0xbb, 0xd4, 0x39, 0xe5, 0x3d, 0x1e, 0x75, 0xa3, 0x3d,
  0x6a, 0x65, 0xb6, 0x3d, 0xfc, 0x7a, 0x36, 0x3d, 0x9e, 0x64, 0x02, 0xbd,
  0x78, 0xde, 0xde, 0x3c, 0x80, 0x07, 0xde, 0x3b, 0x09, 0xd1, 0xe1, 0xbd,
  0xd4, 0x04, 0xe2, 0x3d, 0x02, 0x54, 0xfc, 0xbd, 0xd8, 0x09, 0xb0, 0x3c,
  0x08, 0xd0, 0xc7, 0xbd, 0x88, 0xf3, 0x71, 0x3d, 0x04, 0x29, 0x8d, 0xbd,
  0xf5, 0x95, 0xed, 0xbd, 0xe0, 0x54, 0xe6, 0xbd, 0xa4, 0x6b, 0x8b, 0xbc,
  0xfc, 0x0e, 0xa3, 0xbc, 0xfe, 0xda, 0xfe, 0x3d, 0x74, 0x7d, 0x61, 0x3d,
  0x2a, 0x00, 0xd3, 0xbd, 0x84, 0x93, 0xa5, 0x3d, 0xb6, 0x97, 0xcc, 0x3d,
  0x6a, 0x7e, 0x6a, 0xbd, 0x98, 0xe1, 0x7c, 0x3d, 0x8a, 0x5b, 0x06, 0xbd,
  0xf0, 0x51, 0x49, 0x3d, 0x8b, 0x0f, 0xa3, 0xbd, 0x64, 0x86, 0xdd, 0xbd,
  0x3c, 0xcd, 0xc5, 0xbd, 0x32, 0x2e, 0xd1, 0xbd, 0x00, 0x0a, 0xb1, 0x39,
  0xcc, 0x99, 0x6f, 0xbd, 0xd8, 0xd0, 0xcd, 0x3c, 0x18, 0xee, 0x27, 0xbc,
  0x90, 0x11, 0xa1, 0x3c, 0x90, 0xb7, 0xee, 0x3d, 0x48, 0x8f, 0x90, 0xbc,
  0x98, 0x59, 0x9c, 0x3d, 0xc4, 0x6d, 0xb3, 0xbd, 0xc0, 0xc1, 0x28, 0x3b,
  0x24, 0x09, 0x4b, 0x3d, 0x6a, 0x5b, 0xc1, 0xbd, 0x58, 0xca, 0xb3, 0x3d,
  0xc8, 0x03, 0x5a, 0x3d, 0x1e, 0x7b, 0xba, 0xbd, 0x50, 0x15, 0x72, 0x3d,
  0xd2, 0xad, 0xd0, 0x3d, 0xed, 0xb7, 0xd4, 0xbd, 0x9f, 0x8e, 0xcf, 0xbd,
  0xd2, 0x37, 0x95, 0x3d, 0x48, 0x71, 0xb8, 0x3d, 0x8c, 0x09, 0x26, 0x3d,
  0xcc, 0xd8, 0xba, 0xbd, 0x28, 0xe9, 0xc1, 0x3c, 0x0c, 0x18, 0xf1, 0x3d,
  0x82, 0xa5, 0xa2, 0x3d, 0x00, 0xbd, 0xae, 0xbd, 0x36, 0x91, 0xbe, 0x3d,
  0xb2, 0xf3, 0x5f, 0xbd, 0xd4, 0x1f, 0x91, 0xbd, 0x00, 0xb5, 0xc1, 0xbb,
  0x48, 0xc4, 0xef, 0xbd, 0x6e, 0xcb, 0x97, 0x3d, 0xda, 0xa6, 0x87, 0x3d,
  0x54, 0x38, 0xd5, 0x3d, 0xf8, 0xd4, 0x2f, 0xbc, 0xec, 0xc1, 0xb5, 0xbc,
  0x2c, 0x1c, 0x0c, 0x3d, 0x3c, 0xb4, 0xfd, 0xbd, 0xa4, 0xdc, 0xea, 0xbd,
  0xe4, 0xc2, 0x93, 0x3d, 0x28, 0x36, 0x8a, 0x3c, 0x96, 0x74, 0x50, 0xbd,
  0xd2, 0xc2, 0xed, 0xbd, 0x8f, 0x1d, 0xf0, 0xbd, 0x5a, 0x63, 0xfb, 0x3d,
  0x55, 0x25, 0xd9, 0xbd, 0x9e, 0xfb, 0xf7, 0x3d, 0x91, 0x18, 0xe9, 0xbd,
  0x0a, 0x82, 0xe5, 0xbd, 0xdc, 0x58, 0x95, 0x3d, 0x6b, 0x32, 0x8f, 0xbd,
  0x28, 0x1a, 0x7d, 0xbd, 0xcc, 0x8c, 0x90, 0xbd, 0x58, 0x36, 0xf8, 0x3c,
  0x20, 0x54, 0xe4, 0xbd, 0x7b, 0xe4, 0xbe, 0xbd, 0x02, 0xd7, 0x77, 0xbd,
  0xac, 0x2e, 0x2f, 0xbd, 0xbc, 0xc1, 0x35, 0x3d, 0xb4, 0x8d, 0xa2, 0xbd,
  0x7c, 0x62, 0x2b, 0xbd, 0xc8, 0xa4, 0x73, 0xbc, 0x20, 0x97, 0x1b, 0x3d,
  0xc8, 0x96, 0x40, 0x3d, 0x96, 0xd3, 0xb4, 0x3d, 0xc0, 0x42, 0x9c, 0x3c,
  0x1e, 0xa5, 0xdc, 0x3d, 0x56, 0xed, 0xaf, 0x3d, 0x5c, 0xbc, 0xf9, 0xbd,
  0x5a, 0xa5, 0x93, 0xbd, 0xa0, 0x08, 0xe9, 0x3d, 0x3c, 0x1f, 0xd8, 0x3d,
  0x36, 0x83, 0xd4, 0x3d, 0xac, 0x86, 0x00, 0xbe, 0x60, 0x32, 0x94, 0xbd,
  0xf0, 0x99, 0xc8, 0x3d, 0x54, 0x12, 0xcc, 0xbc, 0xa8, 0x3d, 0x76, 0x3d,
  0x8a, 0x3d, 0xe1, 0x3d, 0x64, 0xea, 0x73, 0xbd, 0x2c, 0x4e, 0xca, 0xbd,
  0x90, 0x6b, 0x8f, 0x3d, 0x08, 0x78, 0xed, 0x3d, 0x6e, 0xce, 0xc5, 0xbd,
  0xca, 0xe0, 0xa9, 0xbd, 0x02, 0x59, 0x92, 0xbd, 0x34, 0x89, 0x14, 0xbd,
  0xe4, 0x3e, 0xe5, 0xbd, 0xa8, 0x66, 0x0d, 0xbd, 0xfc, 0xa4, 0x9d, 0xbd,
  0xf4, 0x4a, 0x11, 0x3d, 0x2c, 0x24, 0x51, 0x3d, 0xde, 0x07, 0xfd, 0xbd,
  0x36, 0xb3, 0xda, 0x3d, 0xf0, 0x37, 0x1c, 0x3c, 0x00, 0x1c, 0xad, 0xb9,
  0x6a, 0xd6, 0xfd, 0x3d, 0x76, 0xf4, 0xef, 0x3d, 0xba, 0xc5, 0xfd, 0x3d,
  0x62, 0xfd, 0xc8, 0x3d, 0x0c, 0xd1, 0xdc, 0xbd, 0xe0, 0x2f, 0xf2, 0x3c,
  0x80, 0x02, 0x98, 0x3a, 0xb0, 0x4c, 0x62, 0x3d, 0x6e, 0x41, 0x9d, 0x3d,
  0xfa, 0x6c, 0x9a, 0x3d, 0x20, 0xf8, 0x95, 0xbd, 0x04, 0xe9, 0x6d, 0x3d,
  0x40, 0x59, 0x7a, 0x3c, 0x22, 0x04, 0xff, 0x3d, 0x58, 0x4c, 0x92, 0xbd,
  0x60, 0x1f, 0xb7, 0xbb, 0x86, 0x33, 0x8d, 0xbd, 0x38, 0xe0, 0xf1, 0x3d,
  0xe0, 0x2f, 0x87, 0xbc, 0xec, 0xa2, 0x55, 0x3d, 0x82, 0xd2, 0xd2, 0xbd,
  0x92, 0x55, 0x95, 0x3d, 0xfc, 0x8b, 0x2f, 0xbd, 0x9e, 0x91, 0x2e, 0xbd,
  0x58, 0xa8, 0x90, 0x3c, 0x50, 0xb5, 0x5b, 0x3d, 0x03, 0xb3, 0xed, 0xbd,
  0xd2, 0x73, 0xc3, 0x3d, 0x1c, 0x87, 0x90, 0xbd, 0x50, 0x18, 0x49, 0xbd,
  0x00, 0x78, 0xe1, 0x39, 0x84, 0xf6, 0x31, 0x3d, 0xa8, 0x6d, 0xca, 0xbc,
  0x14, 0x6a, 0xd5, 0xbd, 0x90, 0x8e, 0xc9, 0x3c, 0x80, 0x10, 0x69, 0xbb,
  0x61, 0xa0, 0x02, 0x3e, 0x78, 0x58, 0x90, 0x3d, 0xee, 0x43, 0xab, 0x3d,
  0x24, 0x8e, 0x86, 0xbd, 0x28, 0xd2, 0x5a, 0x3d, 0x98, 0x4d, 0x90, 0xbc,
  0x40, 0x27, 0xa0, 0x3d, 0xfc, 0xb4, 0x5b, 0x3d, 0xc2, 0x8d, 0xee, 0xbd,
  0xf0, 0xf3, 0x5e, 0x3c, 0xb0, 0x34, 0xa2, 0x3d, 0xe6, 0xbf, 0xcf, 0xbd,
  0x26, 0xc1, 0xf9, 0x3d, 0x9e, 0x05, 0x1f, 0xbd, 0x18, 0x76, 0xc6, 0x3d,
  0xe0, 0xfd, 0x35, 0x3d, 0x40, 0x75, 0x03, 0x3d, 0xdf, 0xad, 0xcc, 0xbd,
  0x20, 0xba, 0x31, 0x3c, 0x61, 0xf9, 0x00, 0x3e, 0x3c, 0xfe, 0x15, 0xbd,
  0x68, 0x54, 0xa7, 0x3c, 0x62, 0xc2, 0x15, 0xbd, 0xb2, 0x86, 0x82, 0x3d,
  0xba, 0x13, 0x4f, 0xbd, 0x3d, 0x0f, 0xcd, 0xbd, 0x0c, 0x85, 0x71, 0x3d,
  0x7b, 0x8f, 0xfe, 0xbd, 0xa2, 0xab, 0x92, 0x3d, 0xf6, 0xdb, 0xd5, 0x3d,
  0x28, 0x76, 0xef, 0xbc, 0xe8, 0xaa, 0x22, 0x3d, 0x06, 0xb4, 0x6c, 0xbd,
  0x96, 0xab, 0x1c, 0xbd, 0x80, 0x31, 0x95, 0xbb, 0xd0, 0x62, 0x5f, 0x3d,
  0x6c, 0xd2, 0x65, 0x3d, 0x54, 0x80, 0x42, 0x3d, 0x64, 0x46, 0x60, 0x3d,
  0x7a, 0xbf, 0xeb, 0xbd, 0xbe, 0x13, 0x09, 0xbd, 0xe6, 0x0c, 0x0d, 0xbd,
  0x72, 0x5c, 0xcd, 0x3d, 0x04, 0xce, 0xe3, 0x3d, 0x5e, 0x83, 0x77, 0xbd,
  0x4c, 0x59, 0xaf, 0x3d, 0x0c, 0x69, 0xcd, 0xbd, 0x50, 0x7c, 0xbb, 0xbb,
  0x68, 0x91, 0xeb, 0x3c, 0x44, 0x72, 0xa0, 0x3d, 0x2e, 0x1a, 0xee, 0xbd,
  0x54, 0x2b, 0x7a, 0x3d, 0xc8, 0xb1, 0xb9, 0xbd, 0x56, 0xee, 0x9f, 0xbd,
  0x7b, 0xb1, 0xd8, 0xbd, 0x98, 0x20, 0x72, 0xbd, 0x24, 0xc8, 0x96, 0x3d,
  0xae, 0x7b, 0xc5, 0xbd, 0x31, 0x92, 0x03, 0xbe, 0xce, 0x87, 0xf9, 0x3d,
  0x2e, 0x57, 0x5f, 0xbd, 0x48, 0x51, 0x58, 0xbc, 0x60, 0x98, 0xd6, 0xbc,
  0x91, 0x67, 0xd1, 0xbd, 0xe2, 0x3a, 0xac, 0x3d, 0x22, 0x50, 0xd5, 0xbd,
  0x88, 0x66, 0xb9, 0xbc, 0x86, 0xa9, 0x4d, 0xbd, 0xb4, 0x41, 0xc7, 0x3d,
  0x78, 0x4d, 0xd7, 0x3d, 0xa8, 0xba, 0xe2, 0x3d, 0x64, 0x5e, 0x2a, 0xbd,
  0xc0, 0x69, 0xb3, 0x3d, 0xb8, 0xa5, 0x92, 0xbc, 0xac, 0x5f, 0xda, 0xbd,
  0x27, 0x25, 0x8e, 0xbd, 0x68, 0x51, 0x7f, 0xbd, 0xec, 0x79, 0xda, 0x3d,
  0x90, 0x38, 0xaa, 0x3c, 0xe8, 0x3d, 0x2c, 0xbd, 0xca, 0x64, 0xf1, 0x3d,
  0x4b, 0x62, 0xa7, 0xbd, 0xae, 0x4d, 0x37, 0xbd, 0x20, 0x35, 0x25, 0x3c,
  0xf6, 0x2f, 0x78, 0xbd, 0xa1, 0x8f, 0xcd, 0xbd, 0xa8, 0x1f, 0xe8, 0x3c,
  0x8a, 0x86, 0x5a, 0xbd, 0xac, 0x13, 0x88, 0xbc, 0x9c, 0xdd, 0x24, 0x3d,
  0x38, 0x56, 0x9d, 0xbd, 0x12, 0x62, 0xbd, 0x3d, 0x00, 0xc0, 0xee, 0xb7,
  0xc0, 0x5e, 0x16, 0xbc, 0xca, 0xcc, 0x4f, 0xbd, 0xa4, 0xee, 0x78, 0x3d,
  0x74, 0x42, 0x87, 0x3d, 0xbe, 0x81, 0xd2, 0x3d, 0x00, 0x06, 0xbb, 0x3a,
  0x6c, 0x4a, 0x60, 0x3d, 0xc4, 0x08, 0xb5, 0xbd, 0x2c, 0xfb, 0xdf, 0xbd,
  0x9c, 0x77, 0x2f, 0x3d, 0x18, 0xe5, 0xad, 0x3c, 0x42, 0x28, 0xcf, 0x3d,
  0xa0, 0x43, 0xc4, 0x3d, 0xc8, 0xe2, 0xc1, 0xbc, 0xb8, 0xc9, 0x93, 0x3d,
  0x80, 0x40, 0x92, 0x3d, 0x00, 0x45, 0x37, 0xbc, 0xda, 0x3d, 0xbf, 0xbd,
  0x20, 0x68, 0x43, 0xbd, 0x30, 0xfc, 0xec, 0xbb, 0x98, 0x24, 0x94, 0xbd,
  0x60, 0x3c, 0x3b, 0xbc, 0xf7, 0x11, 0x87, 0xbd, 0x96, 0x78, 0xa8, 0xbd,
  0x6a, 0x0a, 0x58, 0xbd, 0xca, 0x97, 0x81, 0x3d, 0xa0, 0x80, 0x23, 0x3d,
  0x50, 0xcb, 0x5e, 0x3c, 0xa8, 0x72, 0x48, 0x3d, 0xa8, 0x88, 0xf1, 0x3c,
  0x4c, 0x9d, 0xd1, 0x3d, 0x2a, 0xdb, 0xda, 0x3d, 0x74, 0xaf, 0xc9, 0x3d,
  0xe0, 0x3f, 0x13, 0x3d, 0x50, 0xc9, 0x23, 0x3c, 0x14, 0x90, 0xea, 0xbd,
  0xc6, 0x0c, 0x52, 0xbd, 0x51, 0x4b, 0xfa, 0xbd, 0x1a, 0x75, 0xe9, 0x3d,
  0x78, 0x56, 0xdc, 0xbc, 0xc8, 0xcb, 0xf7, 0x3c, 0x80, 0xd3, 0x9e, 0x3a,
  0x98, 0x8c, 0x71, 0xbd, 0x38, 0xaf, 0xc1, 0x3d, 0x58, 0x3c, 0x8d, 0xbc,
  0x92, 0x39, 0xb0, 0xbd, 0x68, 0x69, 0x96, 0x3c, 0xeb, 0x77, 0x8e, 0xbd,
  0x38, 0x55, 0xb4, 0x3c, 0xfe, 0xfa, 0xd3, 0xbd, 0x58, 0x61, 0x27, 0xbd,
  0x3c, 0x5d, 0x35, 0x3d, 0x06, 0xbf, 0x03, 0xbd, 0x50, 0x9b, 0xd9, 0x3d,
  0x20, 0xdd, 0x23, 0xbd, 0x32, 0x88, 0xb3, 0x3d, 0xa8, 0xe2, 0xf7, 0xbd,
  0x00, 0x2c, 0x68, 0xbb, 0x86, 0xec, 0xf5, 0x3d, 0xc0, 0x36, 0xd4, 0x3d,
  0x34, 0xa9, 0x3b, 0x3d, 0x38, 0x69, 0x86, 0x3d, 0x9a, 0xef, 0x96, 0x3d,
  0xf5, 0xd1, 0xb8, 0xbd, 0x42, 0x53, 0x9b, 0xbd, 0x80, 0x0c, 0x94, 0x3d,
  0xee, 0x75, 0x80, 0xbd, 0xf8, 0x57, 0xf2, 0xbc, 0x2c, 0x3f, 0xb6, 0xbc,
  0x0e, 0x6a, 0xaa, 0x3d, 0xf6, 0x57, 0xa3, 0x3d, 0xfc, 0x1c, 0x85, 0xbc,
  0xee, 0x4b, 0xfe, 0x3d, 0x88, 0xed, 0xb4, 0x3c, 0x70, 0x4d, 0x55, 0x3c,
  0x5c, 0xf4, 0xd8, 0x3d, 0x4e, 0x69, 0xfe, 0xbd, 0xa0, 0xd2, 0x85, 0x3c,
  0x50, 0xe9, 0xbc, 0xbc, 0x8c, 0xf5, 0x21, 0x3d, 0x14, 0xd2, 0xe8, 0x3d,
  0xf2, 0x72, 0x93, 0xbd, 0xbb, 0x2f, 0xf3, 0xbd, 0x07, 0xdd, 0xb0, 0xbd,
  0x8c, 0x1f, 0xe1, 0xbd, 0x15, 0x25, 0xec, 0xbd, 0x5d, 0xf0, 0xab, 0xbd,
  0x3c, 0x19, 0x44, 0x3d, 0xd4, 0xe6, 0x67, 0xbd, 0xbc, 0x29, 0xc5, 0xbd,
  0xc6, 0x57, 0x18, 0xbd, 0xbe, 0x65, 0xf9, 0x3d, 0xa8, 0x01, 0x80, 0xbc,
  0xc6, 0xbe, 0x1d, 0xbd, 0xfd, 0x09, 0xb5, 0xbd, 0x83, 0x1b, 0xc3, 0xbd,
  0x98, 0x33, 0x8f, 0x3c, 0x74, 0x94, 0x95, 0x3d, 0xb0, 0xc8, 0x92, 0x3d,
  0x84, 0xca, 0xe3, 0x3d, 0x69, 0x97, 0xf6, 0xbd, 0x60, 0x35, 0xe4, 0xbb,
  0x52, 0x6a, 0x96, 0x3d, 0xe4, 0xc3, 0xf6, 0x3d, 0x40, 0x52, 0x4f, 0x3d,
  0x50, 0xb1, 0xd0, 0x3c, 0x20, 0xc4, 0xa1, 0xbb, 0x42, 0xc8, 0xe7, 0x3d,
  0x6a, 0x1d, 0xd4, 0xbd, 0x77, 0x89, 0xdc, 0xbd, 0x10, 0x61, 0x0a, 0x3c,
  0x1a, 0x8b, 0x8f, 0xbd, 0xb0, 0x5d, 0xb5, 0xbc, 0x98, 0xf3, 0xd8, 0xbc,
  0x28, 0x07, 0x95, 0xbd, 0x1e, 0x71, 0x5c, 0xbd, 0xac, 0x67, 0xda, 0xbc,
  0x80, 0x61, 0xc9, 0xbc, 0xf0, 0x68, 0xf7, 0xbd, 0xa1, 0x06, 0xd4, 0xbd,
  0x34, 0xfa, 0xd6, 0x3d, 0x80, 0xcd, 0x9d, 0x3d, 0x3c, 0xb0, 0xc6, 0xbd,
  0xd6, 0xec, 0x48, 0xbd, 0x9c, 0x14, 0xcd, 0x3d, 0xf7, 0xcb, 0xd2, 0xbd,
  0xf9, 0xf9, 0xee, 0xbd, 0x0a, 0xf3, 0xac, 0x3d, 0xac, 0x16, 0xbd, 0x3d,
  0x08, 0x21, 0x98, 0xbd, 0x44, 0xd3, 0x47, 0x3d, 0x58, 0x0e, 0xcf, 0x3d,
  0x34, 0x44, 0x25, 0x3d, 0xa9, 0x57, 0x93, 0xbd, 0x08, 0x73, 0xb6, 0x3d,
  0xb8, 0x64, 0x49, 0xbc, 0x3c, 0x97, 0xd1, 0x3d, 0x6a, 0x8a, 0x31, 0xbd,
  0x8c, 0xde, 0x83, 0xbc, 0x88, 0x80, 0x3e, 0xbd, 0xc4, 0xd8, 0x3b, 0x3d,
  0x30, 0xcc, 0xdb, 0x3c, 0xbf, 0x8f, 0xc6, 0xbd, 0xc5, 0x1a, 0xae, 0xbd,
  0x60, 0x2b, 0xcd, 0xbd, 0x94, 0xb8, 0xce, 0xbd, 0x88, 0xeb, 0xa0, 0x3d,
  0x5c, 0x5c, 0x01, 0xbd, 0x1a, 0x8e, 0xef, 0xbd, 0x54, 0x6d, 0x92, 0xbd,
  0xec, 0x16, 0x1e, 0xbd, 0xce, 0xd5, 0xa7, 0x3d, 0x38, 0x8a, 0xac, 0x3c,
  0xf4, 0x50, 0x02, 0x3d, 0x86, 0xc1, 0x98, 0x3d, 0xe8, 0x39, 0xaa, 0xbc,
  0x68, 0x03, 0xbf, 0x3c, 0xf8, 0x4a, 0xd6, 0xbc, 0x34, 0x72, 0xee, 0xbd,
  0xdb, 0xa4, 0xce, 0xbd, 0xb0, 0x6c, 0x69, 0x3d, 0x00, 0xf8, 0xc8, 0x3c,
  0x68, 0x1c, 0x6c, 0x3d, 0x2c, 0x07, 0x31, 0xbd, 0x84, 0x0b, 0xb4, 0xbd,
  0x30, 0xdb, 0xdc, 0xbd, 0x66, 0xd4, 0x9e, 0x3d, 0x5c, 0x7a, 0x41, 0xbd,
  0x3a, 0xa2, 0x00, 0xbd, 0xe0, 0x07, 0x39, 0x3d, 0x30, 0xbc, 0x2c, 0x3d,
  0x04, 0xf3, 0x67, 0xbd, 0x38, 0xe6, 0xac, 0x3c, 0xb8, 0x99, 0xb4, 0x3d,
  0x10, 0x9a, 0x79, 0xbd, 0x86, 0x60, 0xea, 0x3d, 0x7c, 0xae, 0xf5, 0x3d,
  0x68, 0xe0, 0x5c, 0xbd, 0xf4, 0x03, 0xe8, 0xbd, 0x70, 0x5a, 0xdb, 0xbb,
  0x44, 0x1d, 0x71, 0x3d, 0x60, 0xb2, 0xe1, 0x3c, 0x06, 0x7d, 0xd0, 0x3d,
  0xd4, 0x35, 0x1d, 0xbd, 0x20, 0x0d, 0xaa, 0x3b, 0x14, 0x33, 0x13, 0xbd,
  0xda, 0x0c, 0xea, 0x3d, 0x7d, 0x96, 0x8e, 0xbd, 0xcc, 0x3c, 0xe2, 0x3d,
  0xc4, 0x1b, 0x90, 0xbd, 0x08, 0x7b, 0x27, 0xbd, 0x4c, 0x7e, 0x74, 0x3d,
  0x18, 0x99, 0x05, 0xbd, 0xb0, 0xcc, 0x4e, 0xbc, 0xf9, 0x6c, 0xd3, 0xbd,
  0x94, 0x70, 0x5e, 0xbd, 0x5c, 0x82, 0x8a, 0xbd, 0x02, 0x3a, 0xdd, 0xbd,
  0xbf, 0x8f, 0xce, 0xbd, 0xf0, 0xd6, 0x97, 0xbd, 0xfc, 0x1a, 0x40, 0xbd,
  0xde, 0x81, 0x59, 0xbd, 0x00, 0x49, 0x49, 0xbb, 0x03, 0xea, 0xfd, 0xbd,
  0xe8, 0xf9, 0xc9, 0xbd, 0xba, 0xfa, 0x16, 0xbd, 0xa7, 0xad, 0xff, 0xbd,
  0x00, 0x30, 0xfa, 0x39, 0x0c, 0xef, 0xfb, 0xbd, 0x70, 0x4e, 0xd0, 0x3d,
  0xd6, 0x63, 0x11, 0xbd, 0x78, 0x01, 0xc7, 0x3d, 0x80, 0xb6, 0xf1, 0xbc,
  0x3c, 0x7b, 0x9b, 0xbc, 0xa6, 0x3a, 0x09, 0xbd, 0x6e, 0x74, 0xa1, 0x3d,
  0x45, 0xa2, 0xab, 0xbd, 0x20, 0x1d, 0xf4, 0xbc, 0x40, 0x64, 0xb8, 0x3c,
  0xd5, 0x97, 0xc9, 0xbd, 0xb0, 0x8d, 0x16, 0xbc, 0x74, 0x0e, 0x10, 0xbd,
  0x9d, 0x1f, 0xc9, 0xbd, 0x92, 0xda, 0xec, 0x3d, 0x42, 0x0d, 0x5a, 0xbd,
  0xb0, 0xd9, 0x9d, 0x3c, 0xa8, 0xb1, 0x48, 0xbd, 0xdc, 0xa7, 0x0d, 0xbd,
  0xb2, 0x95, 0x99, 0xbd, 0xbc, 0x05, 0xea, 0x3d, 0xa0, 0x6f, 0xa5, 0x3b,
  0x28, 0x25, 0xcc, 0xbc, 0xd0, 0x84, 0xae, 0x3c, 0x6a, 0xb8, 0x9b, 0x3d,
  0x05, 0x1a, 0xb4, 0xbd, 0x40, 0xc0, 0x03, 0xbb, 0x74, 0x49, 0xeb, 0xbd,
  0xf8, 0x2d, 0x9a, 0x3c, 0x23, 0x9b, 0x01, 0xbe, 0x90, 0x78, 0x74, 0x3d,
  0x08, 0x0b, 0x6a, 0xbd, 0xf0, 0xe8, 0xe6, 0x3d, 0x1e, 0x77, 0x13, 0xbd,
  0x3c, 0xc1, 0xbe, 0x3d, 0xd0, 0xca, 0xde, 0x3c, 0x88, 0xfa, 0x69, 0xbc,
  0xfc, 0x22, 0xc6, 0xbd, 0xf8, 0x43, 0x70, 0xbc, 0x5e, 0xce, 0x56, 0xbd,
  0x1c, 0x81, 0xce, 0x3d, 0x0c, 0x05, 0x42, 0x3d, 0xc4, 0xf6, 0x29, 0x3d,
  0x8a, 0xa3, 0x0d, 0xbd, 0x54, 0x45, 0x0d, 0x3d, 0xa0, 0xba, 0x31, 0xbc,
  0x50, 0xeb, 0x70, 0x3d, 0x80, 0x96, 0x64, 0xbd, 0xc0, 0x20, 0xf9, 0x3b,
  0xfa, 0xfe, 0xc3, 0x3d, 0xcf, 0x71, 0x81, 0xbd, 0xba, 0xcf, 0x48, 0xbd,
  0xa8, 0xc7, 0x29, 0x3d, 0x17, 0xa9, 0x87, 0xbd, 0x9a, 0x6a, 0x5b, 0xbd,
  0x9c, 0x53, 0xd4, 0xbd, 0xf0, 0x46, 0x8d, 0x3d, 0x58, 0x66, 0xdd, 0x3c,
  0xb1, 0x07, 0x81, 0xbd, 0x4b, 0xae, 0x00, 0x3e, 0x9c, 0xd5, 0x85, 0x3d,
  0x94, 0xcf, 0x19, 0x3d, 0xd8, 0x40, 0xc1, 0x3d, 0x72, 0xf9, 0x81, 0x3d,
  0xe2, 0x96, 0xb9, 0xbd, 0xd6, 0xc6, 0xaf, 0xbd, 0xc2, 0x73, 0xaa, 0x3d,
  0x68, 0xb3, 0x49, 0xbd, 0x50, 0xe5, 0x00, 0x3c, 0x08, 0xcd, 0x53, 0xbd,
  0x80, 0xf1, 0x2e, 0x3b, 0x28, 0x5b, 0x06, 0x3d, 0x0a, 0x1c, 0xf7, 0x3d,
  0x26, 0x64, 0xb9, 0x3d, 0x1d, 0xc5, 0x00, 0xbe, 0x3d, 0xa9, 0x03, 0x3e,
  0x80, 0x78, 0x67, 0xbc, 0x00, 0x8a, 0xa6, 0xbb, 0x48, 0x32, 0xdf, 0x3c,
  0x78, 0x96, 0x6c, 0x3d, 0x31, 0x16, 0xba, 0xbd, 0x90, 0xd2, 0xaf, 0x3d,
  0x36, 0x38, 0x37, 0xbd, 0xe6, 0x0c, 0x17, 0xbd, 0x5c, 0x2a, 0x49, 0xbd,
  0xa5, 0xe7, 0xe9, 0xbd, 0xe6, 0x8d, 0xbf, 0xbd, 0xca, 0x95, 0x00, 0xbe,
  0x56, 0x84, 0xf4, 0x3d, 0xea, 0x43, 0xf5, 0x3d, 0x40, 0xa5, 0x49, 0x3d,
  0x04, 0xa5, 0xa0, 0xbd, 0x46, 0xb3, 0xa8, 0x3d, 0x18, 0x93, 0x54, 0x3d,
  0x85, 0x74, 0x02, 0xbe, 0xb8, 0x1f, 0xa6, 0xbc, 0x79, 0x1a, 0xa8, 0xbd,
  0x36, 0xba, 0xba, 0xbd, 0xe2, 0x07, 0xe0, 0xbd, 0xfe, 0xf1, 0x69, 0xbd,
  0xb0, 0x8c, 0xc0, 0xbc, 0xb0, 0x77, 0x9e, 0xbb, 0x60, 0xaf, 0x16, 0x3d,
  0x4c, 0x08, 0x4a, 0xbd, 0xec, 0xb3, 0x88, 0xbd, 0x11, 0x7e, 0xad, 0xbd,
  0x66, 0x10, 0x2b, 0xbd, 0xbf, 0x90, 0x84, 0xbd, 0x46, 0xd6, 0x93, 0xbd,
  0x90, 0x4e, 0x26, 0x3c, 0xc8, 0xe8, 0xfe, 0x3c, 0x50, 0xba, 0x86, 0x3d,
  0x7c, 0x56, 0x0f, 0x3d, 0xfc, 0x07, 0x2c, 0xbd, 0xcc, 0xa3, 0x9a, 0x3d,
  0x8a, 0xbf, 0x90, 0x3d, 0x9e, 0x82, 0xcf, 0xbd, 0xc0, 0x4c, 0x3a, 0x3c,
  0xda, 0x23, 0x41, 0xbd, 0x4c, 0x04, 0x31, 0x3d, 0x20, 0x10, 0xcb, 0xbb,
  0x69, 0x11, 0xf9, 0xbd, 0x0e, 0x2c, 0xcd, 0xbd, 0xa5, 0x70, 0xdf, 0xbd,
  0x10, 0xbe, 0x7e, 0x3c, 0x28, 0xfd, 0xa3, 0xbc, 0x56, 0x8c, 0x8e, 0x3d,
  0x46, 0x50, 0xae, 0xbd, 0xf0, 0xf9, 0xfd, 0xbb, 0x90, 0x8f, 0xf2, 0xbd,
  0xb0, 0x2e, 0xca, 0x3d, 0x2b, 0xe2, 0xe1, 0xbd, 0xc4, 0xbc, 0x3c, 0xbd,
  0xbe, 0x9d, 0x97, 0xbd, 0xb8, 0x0d, 0x9e, 0x3d, 0x88, 0x7e, 0xfd, 0xbc,
  0xe4, 0x39, 0x60, 0x3d, 0xd8, 0x8a, 0xa9, 0x3d, 0xd9, 0x36, 0xbc, 0xbd,
  0x28, 0xac, 0x1f, 0x3d, 0x5c, 0x2a, 0xe5, 0xbd, 0x40, 0x15, 0xc5, 0x3b,
  0xfc, 0xc6, 0xb6, 0xbc, 0xf8, 0x73, 0xef, 0xbc, 0xf0, 0xc5, 0xe9, 0xbc,
  0x76, 0x8c, 0xbe, 0x3d, 0xa0, 0x6e, 0x05, 0x3c, 0x32, 0x09, 0x83, 0x3d,
  0x40, 0x81, 0xca, 0xbb, 0xdc, 0x89, 0x9b, 0x3d, 0x0a, 0xa3, 0xa6, 0x3d,
  0x80, 0xb8, 0xf7, 0x3d, 0x00, 0x8c, 0xf0, 0x39, 0x74, 0x75, 0xc6, 0xbc,
  0xd0, 0x9c, 0x6c, 0x3c, 0xc8, 0xe2, 0x3d, 0xbc, 0x30, 0x7b, 0x14, 0x3c,
  0xa4, 0x06, 0xa9, 0x3d, 0xc0, 0xcd, 0xdd, 0x3b, 0x14, 0x7c, 0x93, 0x3d,
  0x40, 0x4f, 0x83, 0x3d, 0x00, 0x07, 0xef, 0xba, 0xf0, 0x9b, 0x36, 0x3d,
  0xab, 0xa9, 0xe5, 0xbd, 0xdf, 0x11, 0xf8, 0xbd, 0x8e, 0xa8, 0xfe, 0xbd,
  0x5c, 0x96, 0xc3, 0xbd, 0x26, 0xff, 0xff, 0xff, 0x04, 0x00, 0x00, 0x00,
  0x08, 0x00, 0x00, 0x00, 0xf3, 0x2c, 0x83, 0x3d, 0xf2, 0x2c, 0x83, 0xbd,
  0x3a, 0xff, 0xff, 0xff, 0x04, 0x00, 0x00, 0x00, 0x10, 0x00, 0x00, 0x00,
  0x98, 0x26, 0x11, 0xbf, 0x04, 0x5e, 0x89, 0x3f, 0x54, 0x41, 0x91, 0x3e,
  0x79, 0x93, 0x0f, 0xbf, 0x56, 0xff, 0xff, 0xff, 0x04, 0x00, 0x00, 0x00,
  0x08, 0x00, 0x00, 0x00, 0x9a, 0x4c, 0x37, 0x3f, 0x80, 0x85, 0x37, 0xbf,
  0xbc, 0xfb, 0xff, 0xff, 0xc0, 0xfb, 0xff, 0xff, 0x0f, 0x00, 0x00, 0x00,
  0x4d, 0x4c, 0x49, 0x52, 0x20, 0x43, 0x6f, 0x6e, 0x76, 0x65, 0x72, 0x74,
  0x65, 0x64, 0x2e, 0x00, 0x01, 0x00, 0x00, 0x00, 0x14, 0x00, 0x00, 0x00,
  0x00, 0x00, 0x0e, 0x00, 0x18, 0x00, 0x14, 0x00, 0x10, 0x00, 0x0c, 0x00,
  0x08, 0x00, 0x04, 0x00, 0x0e, 0x00, 0x00, 0x00, 0x14, 0x00, 0x00, 0x00,
  0x1c, 0x00, 0x00, 0x00, 0x24, 0x01, 0x00, 0x00, 0x28, 0x01, 0x00, 0x00,
  0x2c, 0x01, 0x00, 0x00, 0x04, 0x00, 0x00, 0x00, 0x6d, 0x61, 0x69, 0x6e,
  0x00, 0x00, 0x00, 0x00, 0x04, 0x00, 0x00, 0x00, 0xcc, 0x00, 0x00, 0x00,
  0x84, 0x00, 0x00, 0x00, 0x50, 0x00, 0x00, 0x00, 0x14, 0x00, 0x00, 0x00,
  0x00, 0x00, 0x0e, 0x00, 0x1a, 0x00, 0x14, 0x00, 0x10, 0x00, 0x0c, 0x00,
  0x0b, 0x00, 0x04, 0x00, 0x0e, 0x00, 0x00, 0x00, 0x1c, 0x00, 0x00, 0x00,
  0x00, 0x00, 0x00, 0x09, 0x1c, 0x00, 0x00, 0x00, 0x20, 0x00, 0x00, 0x00,
  0x01, 0x00, 0x00, 0x00, 0x00, 0x00, 0x06, 0x00, 0x08, 0x00, 0x04, 0x00,
  0x06, 0x00, 0x00, 0x00, 0x00, 0x00, 0x80, 0x3f, 0x01, 0x00, 0x00, 0x00,
  0x08, 0x00, 0x00, 0x00, 0x01, 0x00, 0x00, 0x00, 0x07, 0x00, 0x00, 0x00,
  0x9a, 0xff, 0xff, 0xff, 0x10, 0x00, 0x00, 0x00, 0x00, 0x00, 0x00, 0x08,
  0x0c, 0x00, 0x00, 0x00, 0x10, 0x00, 0x00, 0x00, 0x84, 0xfc, 0xff, 0xff,
  0x01, 0x00, 0x00, 0x00, 0x07, 0x00, 0x00, 0x00, 0x03, 0x00, 0x00, 0x00,
  0x06, 0x00, 0x00, 0x00, 0x01, 0x00, 0x00, 0x00, 0x03, 0x00, 0x00, 0x00,
  0xca, 0xff, 0xff, 0xff, 0x10, 0x00, 0x00, 0x00, 0x00, 0x00, 0x00, 0x08,
  0x10, 0x00, 0x00, 0x00, 0x14, 0x00, 0x00, 0x00, 0xba, 0xff, 0xff, 0xff,
  0x00, 0x00, 0x00, 0x01, 0x01, 0x00, 0x00, 0x00, 0x06, 0x00, 0x00, 0x00,
  0x03, 0x00, 0x00, 0x00, 0x05, 0x00, 0x00, 0x00, 0x02, 0x00, 0x00, 0x00,
  0xff, 0xff, 0xff, 0xff, 0x00, 0x00, 0x0e, 0x00, 0x16, 0x00, 0x00, 0x00,
  0x10, 0x00, 0x0c, 0x00, 0x0b, 0x00, 0x04, 0x00, 0x0e, 0x00, 0x00, 0x00,
  0x18, 0x00, 0x00, 0x00, 0x00, 0x00, 0x00, 0x08, 0x18, 0x00, 0x00, 0x00,
  0x1c, 0x00, 0x00, 0x00, 0x00, 0x00, 0x06, 0x00, 0x08, 0x00, 0x07, 0x00,
  0x06, 0x00, 0x00, 0x00, 0x00, 0x00, 0x00, 0x01, 0x01, 0x00, 0x00, 0x00,
  0x05, 0x00, 0x00, 0x00, 0x03, 0x00, 0x00, 0x00, 0x00, 0x00, 0x00, 0x00,
  0x04, 0x00, 0x00, 0x00, 0xff, 0xff, 0xff, 0xff, 0x01, 0x00, 0x00, 0x00,
  0x08, 0x00, 0x00, 0x00, 0x01, 0x00, 0x00, 0x00, 0x00, 0x00, 0x00, 0x00,
  0x09, 0x00, 0x00, 0x00, 0xb4, 0x02, 0x00, 0x00, 0x5c, 0x02, 0x00, 0x00,
  0x1c, 0x02, 0x00, 0x00, 0xe0, 0x01, 0x00, 0x00, 0x94, 0x01, 0x00, 0x00,
  0x2c, 0x01, 0x00, 0x00, 0xc0, 0x00, 0x00, 0x00, 0x50, 0x00, 0x00, 0x00,
  0x04, 0x00, 0x00, 0x00, 0x86, 0xfd, 0xff, 0xff, 0x00, 0x00, 0x00, 0x01,
  0x10, 0x00, 0x00, 0x00, 0x10, 0x00, 0x00, 0x00, 0x09, 0x00, 0x00, 0x00,
  0x28, 0x00, 0x00, 0x00, 0x70, 0xfd, 0xff, 0xff, 0x1b, 0x00, 0x00, 0x00,
  0x53, 0x74, 0x61, 0x74, 0x65, 0x66, 0x75, 0x6c, 0x50, 0x61, 0x72, 0x74,
  0x69, 0x74, 0x69, 0x6f, 0x6e, 0x65, 0x64, 0x43, 0x61, 0x6c, 0x6c, 0x5f,
  0x31, 0x3a, 0x30, 0x00, 0x02, 0x00, 0x00, 0x00, 0x01, 0x00, 0x00, 0x00,
  0x02, 0x00, 0x00, 0x00, 0xce, 0xfd, 0xff, 0xff, 0x00, 0x00, 0x00, 0x01,
  0x10, 0x00, 0x00, 0x00, 0x10, 0x00, 0x00, 0x00, 0x08, 0x00, 0x00, 0x00,
  0x4c, 0x00, 0x00, 0x00, 0xb8, 0xfd, 0xff, 0xff, 0x3c, 0x00, 0x00, 0x00,
  0x73, 0x65, 0x71, 0x75, 0x65, 0x6e, 0x74, 0x69, 0x61, 0x6c, 0x5f, 0x31,
  0x2f, 0x64, 0x65, 0x6e, 0x73, 0x65, 0x5f, 0x32, 0x5f, 0x31, 0x2f, 0x4d,
  0x61, 0x74, 0x4d, 0x75, 0x6c, 0x3b, 0x73, 0x65, 0x71, 0x75, 0x65, 0x6e,
  0x74, 0x69, 0x61, 0x6c, 0x5f, 0x31, 0x2f, 0x64, 0x65, 0x6e, 0x73, 0x65,
  0x5f, 0x32, 0x5f, 0x31, 0x2f, 0x42, 0x69, 0x61, 0x73, 0x41, 0x64, 0x64,
  0x00, 0x00, 0x00, 0x00, 0x02, 0x00, 0x00, 0x00, 0x01, 0x00, 0x00, 0x00,
  0x02, 0x00, 0x00, 0x00, 0x3a, 0xfe, 0xff, 0xff, 0x00, 0x00, 0x00, 0x01,
  0x10, 0x00, 0x00, 0x00, 0x10, 0x00, 0x00, 0x00, 0x07, 0x00, 0x00, 0x00,
  0x48, 0x00, 0x00, 0x00, 0x24, 0xfe, 0xff, 0xff, 0x39, 0x00, 0x00, 0x00,
  0x73, 0x65, 0x71, 0x75, 0x65, 0x6e, 0x74, 0x69, 0x61, 0x6c, 0x5f, 0x31,
  0x2f, 0x64, 0x65, 0x6e, 0x73, 0x65, 0x5f, 0x31, 0x5f, 0x32, 0x2f, 0x4d,
  0x61, 0x74, 0x4d, 0x75, 0x6c, 0x3b, 0x73, 0x65, 0x71, 0x75, 0x65, 0x6e,
  0x74, 0x69, 0x61, 0x6c, 0x5f, 0x31, 0x2f, 0x64, 0x65, 0x6e, 0x73, 0x65,
  0x5f, 0x31, 0x5f, 0x32, 0x2f, 0x52, 0x65, 0x6c, 0x75, 0x00, 0x00, 0x00,
  0x02, 0x00, 0x00, 0x00, 0x01, 0x00, 0x00, 0x00, 0x01, 0x00, 0x00, 0x00,
  0xa2, 0xfe, 0xff, 0xff, 0x00, 0x00, 0x00, 0x01, 0x10, 0x00, 0x00, 0x00,
  0x10, 0x00, 0x00, 0x00, 0x06, 0x00, 0x00, 0x00, 0x44, 0x00, 0x00, 0x00,
  0x8c, 0xfe, 0xff, 0xff, 0x35, 0x00, 0x00, 0x00, 0x73, 0x65, 0x71, 0x75,
  0x65, 0x6e, 0x74, 0x69, 0x61, 0x6c, 0x5f, 0x31, 0x2f, 0x64, 0x65, 0x6e,
  0x73, 0x65, 0x5f, 0x31, 0x2f, 0x4d, 0x61, 0x74, 0x4d, 0x75, 0x6c, 0x3b,
  0x73, 0x65, 0x71, 0x75, 0x65, 0x6e, 0x74, 0x69, 0x61, 0x6c, 0x5f, 0x31,
  0x2f, 0x64, 0x65, 0x6e, 0x73, 0x65, 0x5f, 0x31, 0x2f, 0x52, 0x65, 0x6c,
  0x75, 0x00, 0x00, 0x00, 0x02, 0x00, 0x00, 0x00, 0x01, 0x00, 0x00, 0x00,
  0x04, 0x00, 0x00, 0x00, 0x06, 0xff, 0xff, 0xff, 0x00, 0x00, 0x00, 0x01,
  0x10, 0x00, 0x00, 0x00, 0x10, 0x00, 0x00, 0x00, 0x05, 0x00, 0x00, 0x00,
  0x28, 0x00, 0x00, 0x00, 0xf0, 0xfe, 0xff, 0xff, 0x1b, 0x00, 0x00, 0x00,
  0x73, 0x65, 0x71, 0x75, 0x65, 0x6e, 0x74, 0x69, 0x61, 0x6c, 0x5f, 0x31,
  0x2f, 0x64, 0x65, 0x6e, 0x73, 0x65, 0x5f, 0x31, 0x2f, 0x4d, 0x61, 0x74,
  0x4d, 0x75, 0x6c, 0x00, 0x02, 0x00, 0x00, 0x00, 0x04, 0x00, 0x00, 0x00,
  0x65, 0x01, 0x00, 0x00, 0x4e, 0xff, 0xff, 0xff, 0x00, 0x00, 0x00, 0x01,
  0x10, 0x00, 0x00, 0x00, 0x10, 0x00, 0x00, 0x00, 0x04, 0x00, 0x00, 0x00,
  0x1c, 0x00, 0x00, 0x00, 0x38, 0xff, 0xff, 0xff, 0x0f, 0x00, 0x00, 0x00,
  0x61, 0x72, 0x69, 0x74, 0x68, 0x2e, 0x63, 0x6f, 0x6e, 0x73, 0x74, 0x61,
  0x6e, 0x74, 0x32, 0x00, 0x01, 0x00, 0x00, 0x00, 0x02, 0x00, 0x00, 0x00,
  0x86, 0xff, 0xff, 0xff, 0x00, 0x00, 0x00, 0x01, 0x10, 0x00, 0x00, 0x00,
  0x10, 0x00, 0x00, 0x00, 0x03, 0x00, 0x00, 0x00, 0x1c, 0x00, 0x00, 0x00,
  0x70, 0xff, 0xff, 0xff, 0x0f, 0x00, 0x00, 0x00, 0x61, 0x72, 0x69, 0x74,
  0x68, 0x2e, 0x63, 0x6f, 0x6e, 0x73, 0x74, 0x61, 0x6e, 0x74, 0x31, 0x00,
  0x02, 0x00, 0x00, 0x00, 0x01, 0x00, 0x00, 0x00, 0x04, 0x00, 0x00, 0x00,
  0xc2, 0xff, 0xff, 0xff, 0x00, 0x00, 0x00, 0x01, 0x10, 0x00, 0x00, 0x00,
  0x10, 0x00, 0x00, 0x00, 0x02, 0x00, 0x00, 0x00, 0x1c, 0x00, 0x00, 0x00,
  0xac, 0xff, 0xff, 0xff, 0x0e, 0x00, 0x00, 0x00, 0x61, 0x72, 0x69, 0x74,
  0x68, 0x2e, 0x63, 0x6f, 0x6e, 0x73, 0x74, 0x61, 0x6e, 0x74, 0x00, 0x00,
  0x02, 0x00, 0x00, 0x00, 0x02, 0x00, 0x00, 0x00, 0x01, 0x00, 0x00, 0x00,
  0x00, 0x00, 0x16, 0x00, 0x18, 0x00, 0x14, 0x00, 0x00, 0x00, 0x10, 0x00,
  0x0c, 0x00, 0x08, 0x00, 0x00, 0x00, 0x00, 0x00, 0x00, 0x00, 0x07, 0x00,
  0x16, 0x00, 0x00, 0x00, 0x00, 0x00, 0x00, 0x01, 0x14, 0x00, 0x00, 0x00,
  0x14, 0x00, 0x00, 0x00, 0x01, 0x00, 0x00, 0x00, 0x30, 0x00, 0x00, 0x00,
  0x04, 0x00, 0x04, 0x00, 0x04, 0x00, 0x00, 0x00, 0x1e, 0x00, 0x00, 0x00,
  0x73, 0x65, 0x72, 0x76, 0x69, 0x6e, 0x67, 0x5f, 0x64, 0x65, 0x66, 0x61,
  0x75, 0x6c, 0x74, 0x5f, 0x6b, 0x65, 0x72, 0x61, 0x73, 0x5f, 0x74, 0x65,
  0x6e, 0x73, 0x6f, 0x72, 0x3a, 0x30, 0x00, 0x00, 0x02, 0x00, 0x00, 0x00,
  0x01, 0x00, 0x00, 0x00, 0x65, 0x01, 0x00, 0x00, 0x02, 0x00, 0x00, 0x00,
  0x20, 0x00, 0x00, 0x00, 0x04, 0x00, 0x00, 0x00, 0xf4, 0xff, 0xff, 0xff,
  0x19, 0x00, 0x00, 0x00, 0x00, 0x00, 0x00, 0x19, 0x0c, 0x00, 0x0c, 0x00,
  0x0b, 0x00, 0x00, 0x00, 0x00, 0x00, 0x04, 0x00, 0x0c, 0x00, 0x00, 0x00,
  0x09, 0x00, 0x00, 0x00, 0x00, 0x00, 0x00, 0x09
};
